TRT-8600-EntropyCalibration2
images: 3c00f9f4
/model.0/act/Mul_output_0: 3e7e06fc
/model.1/act/Mul_output_0: 3e9b2cc6
/model.2/cv1/act/Mul_output_0: 3dc7b2bd
/model.2/m/m.0/cv1/act/Mul_output_0: 3d5c081c
/model.2/m/m.0/cv2/act/Mul_output_0: 3dc7b2bd
/model.2/concat/Concat_output_0: 3e104c3d
/model.2/cv3/act/Mul_output_0: 3dadca3c
/model.3/act/Mul_output_0: 3d20b9f5
/model.4/cv1/act/Mul_output_0: 3cbbd055
/model.4/m/m.0/cv1/act/Mul_output_0: 3d206a1e
/model.4/m/m.0/cv2/act/Mul_output_0: 3cbbd055
/model.4/m/m.0/addop/Add_output_0: 3d2d21f1
/model.4/m/m.1/cv1/act/Mul_output_0: 3d1e7a2a
/model.4/m/m.1/cv2/act/Mul_output_0: 3d2d21f1
/model.4/concat/Concat_output_0: 3d423b20
/model.4/cv3/act/Mul_output_0: 3d0c9ede
/model.5/act/Mul_output_0: 3d1f4f28
/model.6/cv1/act/Mul_output_0: 3ce01121
/model.6/m/m.0/cv1/act/Mul_output_0: 3d8901ea
/model.6/m/m.0/cv2/act/Mul_output_0: 3ce01121
/model.6/m/m.0/addop/Add_output_0: 3d38dd9b
/model.6/m/m.1/cv1/act/Mul_output_0: 3d385a43
/model.6/m/m.1/cv2/act/Mul_output_0: 3d38dd9b
/model.6/m/m.1/addop/Add_output_0: 3d609a69
/model.6/m/m.2/cv1/act/Mul_output_0: 3d1fea1e
/model.6/m/m.2/cv2/act/Mul_output_0: 3d609a69
/model.6/concat/Concat_output_0: 3d8819f8
/model.6/cv3/act/Mul_output_0: 3d20e310
/model.7/act/Mul_output_0: 3d3923c8
/model.8/cv1/act/Mul_output_0: 3d5efcbf
/model.8/m/m.0/cv1/act/Mul_output_0: 3d8cc173
/model.8/m/m.0/cv2/act/Mul_output_0: 3d5efcbf
/model.8/concat/Concat_output_0: 3d88cfdc
/model.8/cv3/act/Mul_output_0: 3d3b1193
/model.9/concat/Concat_output_0: 3d64effe
/model.9/cv2/act/Mul_output_0: 3d0c3e8e
/model.12/Concat_output_0: 3d20e310
/model.13/cv1/act/Mul_output_0: 3cf8f565
/model.13/m/m.0/cv1/act/Mul_output_0: 3d0bcade
/model.13/concat/Concat_output_0: 3d0c9c5b
/model.13/cv3/act/Mul_output_0: 3d20a976
/model.16/Concat_output_0: 3d0c9ede
/model.17/cv1/act/Mul_output_0: 3c9659e4
/model.17/m/m.0/cv1/act/Mul_output_0: 3cbc4331
/model.17/concat/Concat_output_0: 3d3b3a2a
/model.17/cv3/act/Mul_output_0: 3dbd65ce
/model.19/Concat_output_0: 3d86af98
/model.20/cv1/act/Mul_output_0: 3d0cd928
/model.20/m/m.0/cv1/act/Mul_output_0: 3cf93945
/model.20/concat/Concat_output_0: 3db8eb7d
/model.20/cv3/act/Mul_output_0: 3db3b079
/model.22/Concat_output_0: 3d3b4789
/model.23/cv1/act/Mul_output_0: 3d5ff795
/model.23/m/m.0/cv1/act/Mul_output_0: 3d5b098b
/model.23/concat/Concat_output_0: 3d5dbbe8
/model.23/cv3/act/Mul_output_0: 3d890dcd
/model.0/act/Sigmoid_output_0: 3c010204
/model.1/act/Sigmoid_output_0: 3c010204
/model.2/cv1/act/Sigmoid_output_0: 3c010204
/model.2/cv2/act/Sigmoid_output_0: 3c010204
/model.2/m/m.0/cv1/act/Sigmoid_output_0: 3c010204
/model.2/m/m.0/cv2/act/Sigmoid_output_0: 3c010204
/model.2/cv3/act/Sigmoid_output_0: 3c010204
/model.3/act/Sigmoid_output_0: 3c010204
/model.4/cv1/act/Sigmoid_output_0: 3c010204
/model.4/cv2/act/Sigmoid_output_0: 3c010204
/model.4/m/m.0/cv1/act/Sigmoid_output_0: 3c010204
/model.4/m/m.0/cv2/act/Sigmoid_output_0: 3c010204
/model.4/m/m.1/cv1/act/Sigmoid_output_0: 3c010204
/model.4/m/m.1/cv2/act/Sigmoid_output_0: 3c010204
/model.4/cv3/act/Sigmoid_output_0: 3c010204
/model.5/act/Sigmoid_output_0: 3c010204
/model.6/cv1/act/Sigmoid_output_0: 3c010204
/model.6/cv2/act/Sigmoid_output_0: 3c010204
/model.6/m/m.0/cv1/act/Sigmoid_output_0: 3c010204
/model.6/m/m.0/cv2/act/Sigmoid_output_0: 3c010204
/model.6/m/m.1/cv1/act/Sigmoid_output_0: 3c010204
/model.6/m/m.1/cv2/act/Sigmoid_output_0: 3c010204
/model.6/m/m.2/cv1/act/Sigmoid_output_0: 3c010204
/model.6/m/m.2/cv2/act/Sigmoid_output_0: 3c010204
/model.6/cv3/act/Sigmoid_output_0: 3c010204
/model.7/act/Sigmoid_output_0: 3c010204
/model.8/cv1/act/Sigmoid_output_0: 3c010204
/model.8/cv2/act/Sigmoid_output_0: 3c010204
/model.8/m/m.0/cv1/act/Sigmoid_output_0: 3c010204
/model.8/m/m.0/cv2/act/Sigmoid_output_0: 3c010204
/model.8/cv3/act/Sigmoid_output_0: 3c010204
/model.9/cv1/act/Sigmoid_output_0: 3c010204
/model.9/cv2/act/Sigmoid_output_0: 3c010204
/model.10/act/Sigmoid_output_0: 3c010204
/model.13/cv1/act/Sigmoid_output_0: 3c010204
/model.13/cv2/act/Sigmoid_output_0: 3c010204
/model.13/m/m.0/cv1/act/Sigmoid_output_0: 3c010204
/model.13/m/m.0/cv2/act/Sigmoid_output_0: 3c010204
/model.13/cv3/act/Sigmoid_output_0: 3c010204
/model.14/act/Sigmoid_output_0: 3c010204
/model.17/cv1/act/Sigmoid_output_0: 3c010204
/model.17/cv2/act/Sigmoid_output_0: 3c010204
/model.17/m/m.0/cv1/act/Sigmoid_output_0: 3c010204
/model.17/m/m.0/cv2/act/Sigmoid_output_0: 3c010204
/model.17/cv3/act/Sigmoid_output_0: 3c010204
/model.18/act/Sigmoid_output_0: 3c010204
/model.20/cv1/act/Sigmoid_output_0: 3c010204
/model.20/cv2/act/Sigmoid_output_0: 3c010204
/model.20/m/m.0/cv1/act/Sigmoid_output_0: 3c010204
/model.20/m/m.0/cv2/act/Sigmoid_output_0: 3c010204
/model.20/cv3/act/Sigmoid_output_0: 3c010204
/model.21/act/Sigmoid_output_0: 3c010204
/model.23/cv1/act/Sigmoid_output_0: 3c010204
/model.23/cv2/act/Sigmoid_output_0: 3c010204
/model.23/m/m.0/cv1/act/Sigmoid_output_0: 3c010204
/model.23/m/m.0/cv2/act/Sigmoid_output_0: 3c010204
/model.23/cv3/act/Sigmoid_output_0: 3c010204
/model.23/cv3/conv/Conv_output_0: 3d890dcd
/model.23/m/m.0/cv2/act/Mul_output_0: 3d5dbbe8
/model.23/cv2/act/Mul_output_0: 3d5dbbe8
/model.23/m/m.0/cv2/conv/Conv_output_0: 3d5dbbe8
/model.23/m/m.0/cv1/conv/Conv_output_0: 3d5b098b
/model.23/cv2/conv/Conv_output_0: 3d5dbbe8
/model.23/cv1/conv/Conv_output_0: 3d5ff795
/model.21/act/Mul_output_0: 3d3b4789
/model.10/act/Mul_output_0: 3d3b4789
/model.21/conv/Conv_output_0: 3d3b4789
/model.20/cv3/conv/Conv_output_0: 3db3b079
/model.20/m/m.0/cv2/act/Mul_output_0: 3db8eb7d
/model.20/cv2/act/Mul_output_0: 3db8eb7d
/model.20/m/m.0/cv2/conv/Conv_output_0: 3db8eb7d
/model.20/m/m.0/cv1/conv/Conv_output_0: 3cf93945
/model.20/cv2/conv/Conv_output_0: 3db8eb7d
/model.20/cv1/conv/Conv_output_0: 3d0cd928
/model.18/act/Mul_output_0: 3d86af98
/model.14/act/Mul_output_0: 3d86af98
/model.18/conv/Conv_output_0: 3d86af98
/model.17/cv3/conv/Conv_output_0: 3dbd65ce
/model.17/m/m.0/cv2/act/Mul_output_0: 3d3b3a2a
/model.17/cv2/act/Mul_output_0: 3d3b3a2a
/model.17/m/m.0/cv2/conv/Conv_output_0: 3d3b3a2a
/model.17/m/m.0/cv1/conv/Conv_output_0: 3cbc4331
/model.17/cv2/conv/Conv_output_0: 3d3b3a2a
/model.17/cv1/conv/Conv_output_0: 3c9659e4
/model.15/Resize_output_0: 3d0c9ede
/model.14/conv/Conv_output_0: 3d86af98
/model.13/cv3/conv/Conv_output_0: 3d20a976
/model.13/m/m.0/cv2/act/Mul_output_0: 3d0c9c5b
/model.13/cv2/act/Mul_output_0: 3d0c9c5b
/model.13/m/m.0/cv2/conv/Conv_output_0: 3d0c9c5b
/model.13/m/m.0/cv1/conv/Conv_output_0: 3d0bcade
/model.13/cv2/conv/Conv_output_0: 3d0c9c5b
/model.13/cv1/conv/Conv_output_0: 3cf8f565
/model.11/Resize_output_0: 3d20e310
/model.10/conv/Conv_output_0: 3d3b4789
/model.9/cv2/conv/Conv_output_0: 3d0c3e8e
/model.9/cv1/act/Mul_output_0: 3d64effe
/model.9/m/MaxPool_output_0: 3d64effe
/model.9/m_1/MaxPool_output_0: 3d64effe
/model.9/m_2/MaxPool_output_0: 3d64effe
/model.9/cv1/conv/Conv_output_0: 3d64effe
/model.8/cv3/conv/Conv_output_0: 3d3b1193
/model.8/m/m.0/addop/Add_output_0: 3d88cfdc
/model.8/cv2/act/Mul_output_0: 3d88cfdc
/model.8/m/m.0/cv2/conv/Conv_output_0: 3d5efcbf
/model.8/m/m.0/cv1/conv/Conv_output_0: 3d8cc173
/model.8/cv2/conv/Conv_output_0: 3d88cfdc
/model.8/cv1/conv/Conv_output_0: 3d5efcbf
/model.7/conv/Conv_output_0: 3d3923c8
/model.6/cv3/conv/Conv_output_0: 3d20e310
/model.6/m/m.2/addop/Add_output_0: 3d8819f8
/model.6/cv2/act/Mul_output_0: 3d8819f8
/model.6/m/m.2/cv2/conv/Conv_output_0: 3d609a69
/model.6/m/m.2/cv1/conv/Conv_output_0: 3d1fea1e
/model.6/m/m.1/cv2/conv/Conv_output_0: 3d38dd9b
/model.6/m/m.1/cv1/conv/Conv_output_0: 3d385a43
/model.6/m/m.0/cv2/conv/Conv_output_0: 3ce01121
/model.6/m/m.0/cv1/conv/Conv_output_0: 3d8901ea
/model.6/cv2/conv/Conv_output_0: 3d8819f8
/model.6/cv1/conv/Conv_output_0: 3ce01121
/model.5/conv/Conv_output_0: 3d1f4f28
/model.4/cv3/conv/Conv_output_0: 3d0c9ede
/model.4/m/m.1/addop/Add_output_0: 3d423b20
/model.4/cv2/act/Mul_output_0: 3d423b20
/model.4/m/m.1/cv2/conv/Conv_output_0: 3d2d21f1
/model.4/m/m.1/cv1/conv/Conv_output_0: 3d1e7a2a
/model.4/m/m.0/cv2/conv/Conv_output_0: 3cbbd055
/model.4/m/m.0/cv1/conv/Conv_output_0: 3d206a1e
/model.4/cv2/conv/Conv_output_0: 3d423b20
/model.4/cv1/conv/Conv_output_0: 3cbbd055
/model.3/conv/Conv_output_0: 3d20b9f5
/model.2/cv3/conv/Conv_output_0: 3dadca3c
/model.2/m/m.0/addop/Add_output_0: 3e104c3d
/model.2/cv2/act/Mul_output_0: 3e104c3d
/model.2/m/m.0/cv2/conv/Conv_output_0: 3dc7b2bd
/model.2/m/m.0/cv1/conv/Conv_output_0: 3d5c081c
/model.2/cv2/conv/Conv_output_0: 3e104c3d
/model.2/cv1/conv/Conv_output_0: 3dc7b2bd
/model.1/conv/Conv_output_0: 3e9b2cc6
/model.0/conv/Conv_output_0: 3e7e06fc
